
00111110010101111011110000001000
10111101111100100011010101111010
00111110110100110001101100111110
00111101110110010110001010111011

00111100101000110011010010101100
10111101101010100110011100011011
00111110000110000101000111010110
00111110100001101110110100000111

00111110010010011101000001100111
00111110110010110010001010100001
00111110000000101100000000011010
00111110101111001111010011100100

00111110110101010101101100000011
00111110110101101010000101111010
00111101001111001100101110000100
00111110111100000111100100011101

00111110110100111111000100000101
10111101010100100110101100011101
00111110101011010010000100110010
00111110101001110011000111010100

10111101101000100101110001111100
00111110110010001111100010111011
10111101010101011111000000000010
10111110000010001101111101101010

00111101101001100110000101101100
10111110010011101000011100001111
10111110000001010001110110000110
00111110100110000000000010000001

00111101100010010000111000101101
10111110001110011000001101100011
00111110111100100110010001111010
00111110111010001010100100001101

10111110011000110011101011100110
10111110010010110101111100100000
00111110010011101010001110000111
10111110010000001111111100100011

00111110110110010100110000011100
00111101001100011001011101001011
10111110010111010100001000000101
00111110000101100011001100000111
